TRT-8001-EntropyCalibration2
input_1: 3c010a14
conv1/convolution: 3d00d259
conv1/BiasAdd: 3d00d259
bn_conv1/batchnorm/mul_1: 3e050cca
bn_conv1/batchnorm/add_1: 3c163537
activation_1/Relu: 3d924806
block_1a_conv_1/convolution: 3df36302
block_1a_conv_1/BiasAdd: 3df36302
block_1a_bn_1/batchnorm/mul_1: 3db7de4a
block_1a_bn_1/batchnorm/add_1: 3ce66c7f
block_1a_relu_1/Relu: 3d587191
block_1a_conv_2/convolution: 3dc7364d
block_1a_conv_2/BiasAdd: 3dc7364d
block_1a_bn_2/batchnorm/mul_1: 3df0f95f
block_1a_bn_2/batchnorm/add_1: 3d0138a0
block_1a_conv_shortcut/convolution: 3d2e1870
block_1a_conv_shortcut/BiasAdd: 3d2e1870
block_1a_bn_shortcut/batchnorm/mul_1: 3d9e64bd
block_1a_bn_shortcut/batchnorm/add_1: 3c9b9336
add_1/add: 3d0411b4
block_1a_relu/Relu: 3da1fe2d
block_1b_conv_1/convolution: 3db8c856
block_1b_conv_1/BiasAdd: 3db8c856
block_1b_bn_1/batchnorm/mul_1: 3db61a47
block_1b_bn_1/batchnorm/add_1: 3cfbb688
block_1b_relu_1/Relu: 3d7af0d1
block_1b_conv_2/convolution: 3d3cc6b9
block_1b_conv_2/BiasAdd: 3d3cc6b9
block_1b_bn_2/batchnorm/mul_1: 3db861d3
block_1b_bn_2/batchnorm/add_1: 3d15f338
add_2/add: 3d15f338
block_1b_relu/Relu: 3d8220c6
block_2a_conv_1/convolution: 3dd26526
block_2a_conv_1/BiasAdd: 3dd26526
block_2a_bn_1/batchnorm/mul_1: 3d7f5ba3
block_2a_bn_1/batchnorm/add_1: 3c2eeafe
block_2a_relu_1/Relu: 3d89a4ce
block_2a_conv_2/convolution: 3d1dfef2
block_2a_conv_2/BiasAdd: 3d1dfef2
block_2a_bn_2/batchnorm/mul_1: 3daa6539
block_2a_bn_2/batchnorm/add_1: 3c9fe0d9
block_2a_conv_shortcut/convolution: 3d2ffd96
block_2a_conv_shortcut/BiasAdd: 3d2ffd96
block_2a_bn_shortcut/batchnorm/mul_1: 3d8acb8c
block_2a_bn_shortcut/batchnorm/add_1: 3cd3eb79
add_3/add: 3c9ef336
block_2a_relu/Relu: 3da62934
block_2b_conv_1/convolution: 3d733d75
block_2b_conv_1/BiasAdd: 3d733d75
block_2b_bn_1/batchnorm/mul_1: 3d4c4aa1
block_2b_bn_1/batchnorm/add_1: 3d079223
block_2b_relu_1/Relu: 3d3902a8
block_2b_conv_2/convolution: 3ca94503
block_2b_conv_2/BiasAdd: 3ca94503
block_2b_bn_2/batchnorm/mul_1: 3da84d61
block_2b_bn_2/batchnorm/add_1: 3d136944
add_4/add: 3d136944
block_2b_relu/Relu: 3d2d8383
block_3a_conv_1/convolution: 3dbbb101
block_3a_conv_1/BiasAdd: 3dbbb101
block_3a_bn_1/batchnorm/mul_1: 3dd97742
block_3a_bn_1/batchnorm/add_1: 3c63caa4
block_3a_relu_1/Relu: 3dca2285
block_3a_conv_2/convolution: 3dc42288
block_3a_conv_2/BiasAdd: 3dc42288
block_3a_bn_2/batchnorm/mul_1: 3db7b503
block_3a_bn_2/batchnorm/add_1: 3ced46af
block_3a_conv_shortcut/convolution: 3c823dfd
block_3a_conv_shortcut/BiasAdd: 3c823dfd
block_3a_bn_shortcut/batchnorm/mul_1: 3d944416
block_3a_bn_shortcut/batchnorm/add_1: 3cb00a33
add_5/add: 3d1152e3
block_3a_relu/Relu: 3e1438a9
block_3b_conv_1/convolution: 3d9e3d49
block_3b_conv_1/BiasAdd: 3d9e3d49
block_3b_bn_1/batchnorm/mul_1: 3d63ef82
block_3b_bn_1/batchnorm/add_1: 3c34c8dc
block_3b_relu_1/Relu: 3d317912
block_3b_conv_2/convolution: 3cf9d39f
block_3b_conv_2/BiasAdd: 3cf9d39f
block_3b_bn_2/batchnorm/mul_1: 3d9f0faf
block_3b_bn_2/batchnorm/add_1: 3cad0601
add_6/add: 3cc86ba1
block_3b_relu/Relu: 3d53cd38
block_4a_conv_1/convolution: 3dd18fdb
block_4a_conv_1/BiasAdd: 3dd18fdb
block_4a_bn_1/batchnorm/mul_1: 3e2b3e3a
block_4a_bn_1/batchnorm/add_1: 3cb4dd20
block_4a_relu_1/Relu: 3e0997e5
block_4a_conv_2/convolution: 3e0cc9f3
block_4a_conv_2/BiasAdd: 3e0cc9f3
block_4a_bn_2/batchnorm/mul_1: 3dafab34
block_4a_bn_2/batchnorm/add_1: 3c8625c7
block_4a_conv_shortcut/convolution: 3d8165a7
block_4a_conv_shortcut/BiasAdd: 3d8165a7
block_4a_bn_shortcut/batchnorm/mul_1: 3d424d64
block_4a_bn_shortcut/batchnorm/add_1: 3cb7a847
add_7/add: 3d1fcc2b
block_4a_relu/Relu: 3e28374c
block_4b_conv_1/convolution: 3e9fd92c
block_4b_conv_1/BiasAdd: 3e9fd92c
block_4b_bn_1/batchnorm/mul_1: 3e3e43c3
block_4b_bn_1/batchnorm/add_1: 3cccf7da
block_4b_relu_1/Relu: 3e5e2488
block_4b_conv_2/convolution: 3e2f5680
block_4b_conv_2/BiasAdd: 3e2f5680
block_4b_bn_2/batchnorm/mul_1: 3e1736b7
block_4b_bn_2/batchnorm/add_1: 3d796e99
add_8/add: 3d99fdbd
block_4b_relu/Relu: 3de93cf3
output_bbox/convolution: 3d1dcdb3
output_bbox/BiasAdd: 3d1aed48
output_cov/convolution: 3e08cc12
output_cov/BiasAdd: 3e08d780
output_cov/Sigmoid: 3914c503
